<unk>	0
<s>	0
</s>	0
▁t	-0
▁a	-1
in	-2
he	-3
re	-4
on	-5
▁the	-6
er	-7
▁s	-8
at	-9
▁c	-10
or	-11
nd	-12
es	-13
is	-14
it	-15
ou	-16
en	-17
""	-18
▁w	-19
▁p	-20
an	-21
▁f	-22
▁o	-23
al	-24
ing	-25
▁b	-26
▁m	-27
▁and	-28
▁to	-29
▁in	-30
▁d	-31
le	-32
ar	-33
ion	-34
▁of	-35
ic	-36
ed	-37
ro	-38
as	-39
▁h	-40
▁th	-41
ct	-42
▁e	-43
▁is	-44
▁n	-45
ent	-46
▁re	-47
.\	-48
▁l	-49
om	-50
ve	-51
▁y	-52
us	-53
\""	-54
et	-55
▁you	-56
ll	-57
im	-58
▁g	-59
▁T	-60
ow	-61
id	-62
ot	-63
▁I	-64
ly	-65
st	-66
am	-67
ce	-68
ch	-69
▁be	-70
ation	-71
▁for	-72
ig	-73
▁that	-74
",	-75
"[	-76
]",	-77
"[""	-78
""]",	-79
ut	-80
▁st	-81
ay	-82
if	-83
▁or	-84
ur	-85
ol	-86
▁on	-87
ith	-88
ers	-89
ra	-90
▁con	-91
il	-92
▁it	-93
▁an	-94
un	-95
ul	-96
▁as	-97
▁pro	-98
▁with	-99
ate	-100
▁A	-101
▁can	-102
pe	-103
od	-104
um	-105
ir	-106
▁S	-107
se	-108
her	-109
ge	-110
▁are	-111
ver	-112
▁1	-113
qu	-114
ke	-115
""]","[""	-116
▁\""	-117
▁v	-118
▁ha	-119
ist	-120
▁us	-121
▁com	-122
ld	-123
est	-124
▁The	-125
pt	-126
▁ex	-127
▁de	-128
▁C	-129
▁wh	-130
▁he	-131
ab	-132
ad	-133
ess	-134
ri	-135
0,	-136
ure	-137
:\	-138
pp	-139
ere	-140
▁\	-141
ter	-142
▁(	-143
em	-144
el	-145
ant	-146
ud	-147
out	-148
ity	-149
ore	-150
igh	-151
00	-152
ort	-153
▁your	-154
ck	-155
ive	-156
iv	-157
▁H	-158
▁P	-159
▁su	-160
ain	-161
th	-162
▁not	-163
ment	-164
▁ne	-165
os	-166
▁le	-167
▁ch	-168
▁se	-169
▁r	-170
ies	-171
ill	-172
▁M	-173
nt	-174
op	-175
1,	-176
ions	-177
▁have	-178
▁2	-179
ould	-180
▁we	-181
res	-182
ight	-183
▁=	-184
▁B	-185
ide	-186
pl	-187
ect	-188
iz	-189
``	-190
▁-	-191
and	-192
rom	-193
▁by	-194
ial	-195
▁al	-196
▁im	-197
age	-198
▁D	-199
cl	-200
▁me	-201
ie	-202
▁sh	-203
ine	-204
our	-205
▁k	-206
ical	-207
▁E	-208
▁en	-209
art	-210
▁u	-211
act	-212
oc	-213
all	-214
▁F	-215
ther	-216
\/	-217
ome	-218
▁wor	-219
ame	-220
orm	-221
▁ab	-222
ple	-223
The	-224
per	-225
▁R	-226
▁L	-227
▁W	-228
▁from	-229
▁cont	-230
his	-231
▁at	-232
▁ma	-233
.""]","[""	-234
ust	-235
▁pl	-236
▁this	-237
▁int	-238
**	-239
able	-240
▁do	-241
ue	-242
ich	-243
rou	-244
▁ad	-245
form	-246
▁res	-247
,"[""	-248
ult	-249
are	-250
▁qu	-251
ag	-252
3.	-253
▁li	-254
ind	-255
og	-256
▁G	-257
ff	-258
▁un	-259
▁te	-260
ard	-261
ber	-262
)\	-263
ac	-264
ile	-265
ations	-266
.""]",	-267
▁spe	-268
2.	-269
ance	-270
xt	-271
ep	-272
▁has	-273
▁imp	-274
▁`	-275
▁It	-276
ans	-277
▁This	-278
ous	-279
ction	-280
king	-281
▁other	-282
▁their	-283
ime	-284
ence	-285
▁fe	-286
ase	-287
▁more	-288
06	-289
ast	-290
▁which	-291
ang	-292
ry	-293
gh	-294
▁all	-295
▁comp	-296
▁N	-297
ire	-298
ru	-299
▁but	-300
cc	-301
▁whe	-302
▁j	-303
ach	-304
nI	-305
now	-306
▁like	-307
,\	-308
▁app	-309
ated	-310
ific	-311
▁cl	-312
lp	-313
▁any	-314
▁was	-315
oo	-316
▁3	-317
-1	-318
ib	-319
ack	-320
ual	-321
▁will	-322
ary	-323
ice	-324
▁prov	-325
ass	-326
▁help	-327
1.	-328
▁if	-329
ong	-330
▁man	-331
vel	-332
20	-333
ost	-334
▁sc	-335
ip	-336
so	-337
av	-338
ign	-339
ace	-340
▁U	-341
ap	-342
▁O	-343
ces	-344
▁mod	-345
int	-346
fere	-347
ata	-348
▁know	-349
ress	-350
▁use	-351
▁num	-352
▁about	-353
ite	-354
```	-355
ition	-356
▁cre	-357
ude	-358
▁some	-359
ks	-360
du	-361
▁go	-362
ari	-363
▁per	-364
gpt	-365
one	-366
▁so	-367
▁up	-368
▁would	-369
▁out	-370
▁they	-371
▁ro	-372
▁comm	-373
nder	-374
▁may	-375
▁pre	-376
▁dif	-377
ory	-378
▁spec	-379
▁J	-380
nThe	-381
▁need	-382
▁my	-383
ens	-384
▁sy	-385
▁tra	-386
▁ar	-387
▁tr	-388
.""]",0,	-389
▁such	-390
▁incl	-391
▁cons	-392
▁also	-393
ors	-394
▁one	-395
▁dis	-396
▁time	-397
▁In	-398
▁used	-399
ak	-400
▁sp	-401
4.	-402
▁ev	-403
oll	-404
▁Y	-405
ful	-406
erm	-407
ount	-408
▁its	-409
ents	-410
▁des	-411
ell	-412
ree	-413
led	-414
nA	-415
end	-416
les	-417
▁ind	-418
▁pers	-419
tur	-420
ings	-421
ject	-422
▁bet	-423
lo	-424
▁val	-425
▁there	-426
▁acc	-427
▁data	-428
-7	-429
--	-430
cess	-431
▁fun	-432
con	-433
▁em	-434
ener	-435
▁5	-436
▁import	-437
ake	-438
▁pos	-439
04	-440
▁them	-441
ating	-442
ays	-443
ia	-444
▁ass	-445
we	-446
hy	-447
▁How	-448
ize	-449
▁who	-450
▁pr	-451
nS	-452
▁part	-453
▁differe	-454
▁rel	-455
▁his	-456
▁over	-457
ub	-458
?""]","[""	-459
ound	-460
▁4	-461
▁using	-462
▁inform	-463
▁number	-464
▁|	-465
ever	-466
ility	-467
▁+	-468
ates	-469
ove	-470
▁am	-471
▁her	-472
ode	-473
ail	-474
13	-475
ased	-476
ning	-477
▁pe	-478
put	-479
▁could	-480
hat	-481
ature	-482
ally	-483
▁model	-484
▁under	-485
▁add	-486
▁ser	-487
ict	-488
22	-489
ons	-490
stem	-491
ph	-492
ord	-493
aus	-494
▁into	-495
▁quest	-496
ities	-497
▁po	-498
ft	-499
0.	-500
ics	-501
▁act	-502
▁new	-503
nT	-504
5.	-505
ruct	-506
▁provide	-507
chat	-508
ange	-509
ns	-510
▁**	-511
▁str	-512
▁make	-513
▁person	-514
▁vari	-515
ater	-516
;\	-517
▁K	-518
ear	-519
0,0	-520
▁information	-521
1,0,0	-522
1,0	-523
▁inter	-524
-4	-525
pect	-526
very	-527
```\	-528
ick	-529
ular	-530
ible	-531
▁tw	-532
▁each	-533
ram	-534
▁ty	-535
▁how	-536
▁ra	-537
▁important	-538
ower	-539
▁exam	-540
▁col	-541
ne	-542
▁rec	-543
eth	-544
▁St	-545
▁ke	-546
rib	-547
▁inv	-548
\\	-549
ark	-550
ient	-551
ative	-552
ish	-553
▁than	-554
ments	-555
ild	-556
oth	-557
gg	-558
03	-559
olog	-560
▁form	-561
▁gener	-562
ollow	-563
rough	-564
0,1	-565
▁system	-566
01	-567
bo	-568
▁det	-569
ose	-570
▁play	-571
ov	-572
ext	-573
round	-574
ten	-575
▁If	-576
▁different	-577
▁char	-578
▁when	-579
▁specific	-580
cla	-581
▁includ	-582
▁off	-583
ues	-584
lect	-585
row	-586
cre	-587
iew	-588
▁follow	-589
angu	-590
▁these	-591
irst	-592
lic	-593
5-	-594
▁V	-595
fore	-596
▁sim	-597
▁fl	-598
▁set	-599
▁However	-600
claude	-601
reat	-602
▁find	-603
▁exper	-604
▁function	-605
▁two	-606
tain	-607
ract	-608
ough	-609
▁requ	-610
old	-611
▁cal	-612
▁sm	-613
.\""	-614
ise	-615
▁no	-616
▁through	-617
▁eff	-618
▁'	-619
nIn	-620
get	-621
ential	-622
▁ob	-623
vic	-624
oy	-625
▁word	-626
pend	-627
▁what	-628
ween	-629
▁hum	-630
rit	-631
ral	-632
▁where	-633
ople	-634
▁bec	-635
▁between	-636
▁langu	-637
▁6	-638
▁should	-639
ook	-640
▁You	-641
▁trans	-642
▁rep	-643
▁co	-644
stand	-645
ife	-646
ef	-647
velop	-648
hes	-649
its	-650
▁work	-651
▁ref	-652
▁rem	-653
ng	-654
▁many	-655
▁{	-656
▁way	-657
▁inst	-658
▁comple	-659
▁reg	-660
▁AI	-661
.""]",1,0,0	-662
pport	-663
▁been	-664
▁expl	-665
yth	-666
▁*	-667
▁world	-668
▁people	-669
▁bu	-670
▁process	-671
ause	-672
▁let	-673
-3.	-674
enc	-675
▁sol	-676
▁example	-677
▁Ch	-678
▁get	-679
wer	-680
,""	-681
.""]",0,1,0	-682
"",""	-683
als	-684
▁mat	-685
ically	-686
▁prog	-687
pre	-688
ood	-689
own	-690
14	-691
▁att	-692
Here	-693
▁high	-694
▁consid	-695
▁while	-696
ond	-697
▁charact	-698
▁sub	-699
▁ag	-700
▁provid	-701
ian	-702
sel	-703
0\	-704
▁sa	-705
ting	-706
urre	-707
ble	-708
ption	-709
▁exp	-710
▁then	-711
6.	-712
▁def	-713
-2	-714
ious	-715
anc	-716
chn	-717
83	-718
▁code	-719
▁most	-720
▁appro	-721
▁feel	-722
19	-723
lease	-724
▁first	-725
.""]",0,0,1	-726
▁resp	-727
__	-728
wn	-729
▁produ	-730
▁language	-731
▁sk	-732
ution	-733
▁\\	-734
▁lear	-735
te	-736
▁develop	-737
inst	-738
up	-739
▁equ	-740
▁including	-741
▁understand	-742
▁want	-743
ience	-744
ify	-745
▁game	-746
▁sign	-747
ec	-748
▁[	-749
▁\/	-750
ivid	-751
▁che	-752
ness	-753
eg	-754
-13	-755
-06	-756
-0613	-757
ath	-758
-3.5-	-759
ull	-760
ows	-761
▁car	-762
▁she	-763
ob	-764
▁well	-765
▁poss	-766
▁x	-767
turbo	-768
ython	-769
alth	-770
▁create	-771
▁ans	-772
▁does	-773
▁just	-774
▁dist	-775
▁often	-776
▁only	-777
wor	-778
▁cor	-779
nW	-780
▁dec	-781
▁20	-782
uring	-783
▁adv	-784
ts	-785
▁best	-786
▁key	-787
ident	-788
▁techn	-789
\""\	-790
▁ph	-791
eng	-792
▁our	-793
▁10	-794
ines	-795
▁ac	-796
view	-797
▁list	-798
▁fact	-799
▁19	-800
▁$	-801
),	-802
iqu	-803
▁known	-804
▁8	-805
▁lead	-806
hip	-807
▁text	-808
▁pot	-809
▁He	-810
▁life	-811
ather	-812
▁start	-813
▁la	-814
▁Here	-815
▁op	-816
7.	-817
arm	-818
fl	-819
▁step	-820
ama	-821
fter	-822
▁lar	-823
ety	-824
ered	-825
nce	-826
ural	-827
▁might	-828
▁based	-829
▁name	-830
dd	-831
ized	-832
▁depend	-833
▁state	-834
▁bel	-835
▁term	-836
▁power	-837
▁result	-838
▁min	-839
▁being	-840
▁hand	-841
ars	-842
▁ap	-843
ex	-844
ving	-845
ink	-846
▁sum	-847
hen	-848
▁back	-849
arch	-850
▁gra	-851
ss	-852
▁real	-853
ax	-854
▁program	-855
any	-856
ves	-857
▁both	-858
▁perform	-859
043	-860
▁typ	-861
ved	-862
inal	-863
ages	-864
ividual	-865
▁retur	-866
▁av	-867
▁They	-868
2\	-869
▁don	-870
cul	-871
li	-872
ional	-873
▁7	-874
▁year	-875
itive	-876
▁see	-877
rite	-878
▁ent	-879
**:	-880
5,	-881
▁answer	-882
▁9	-883
ring	-884
▁value	-885
line	-886
▁context	-887
▁bl	-888
▁individual	-889
}\	-890
▁take	-891
self	-892
▁soc	-893
ade	-894
erg	-895
▁main	-896
▁were	-897
▁loc	-898
red	-899
▁mean	-900
imate	-901
cept	-902
▁sur	-903
▁fil	-904
33	-905
\"",	-906
▁long	-907
urrent	-908
▁without	-909
nO	-910
11	-911
day	-912
uc	-913
▁gu	-914
▁top	-915
▁pop	-916
iss	-917
omm	-918
irect	-919
▁support	-920
▁questions	-921
ism	-922
vers	-923
resent	-924
76	-925
ense	-926
▁here	-927
ric	-928
ute	-929
▁personal	-930
5\	-931
lm	-932
4\	-933
not	-934
ield	-935
▁good	-936
ily	-937
()	-938
▁own	-939
ethod	-940
▁class	-941
port	-942
▁ins	-943
▁{\	-944
ward	-945
▁had	-946
2,	-947
▁point	-948
ability	-949
nB	-950
▁<	-951
hed	-952
▁For	-953
ix	-954
nF	-955
106	-956
▁disc	-957
ited	-958
▁run	-959
▁health	-960
ty	-961
▁following	-962
▁end	-963
▁ext	-964
ivers	-965
una	-966
ware	-967
""]",0,	-968
▁light	-969
▁every	-970
▁question	-971
▁design	-972
▁med	-973
▁giv	-974
▁human	-975
-2.	-976
aly	-977
8\	-978
ined	-979
▁assist	-980
▁potential	-981
▁day	-982
ures	-983
roup	-984
ocus	-985
▁small	-986
ins	-987
ational	-988
▁down	-989
nect	-990
▁commun	-991
io	-992
▁mult	-993
▁possible	-994
-1106	-995
▁invol	-996
▁par	-997
tern	-998
\"":	-999
▁method	-1000
here	-1001
ody	-1002
2022	-1003
ript	-1004
▁ele	-1005
vicuna	-1006
▁character	-1007
ron	-1008
▁complex	-1009
▁object	-1010
▁eng	-1011
ways	-1012
99	-1013
?\	-1014
ember	-1015
▁same	-1016
pro	-1017
▁sl	-1018
▁file	-1019
▁0	-1020
▁ide	-1021
▁effect	-1022
▁prom	-1023
▁around	-1024
▁art	-1025
▁include	-1026
nN	-1027
ining	-1028
ames	-1029
8.	-1030
▁partic	-1031
der	-1032
ock	-1033
ertain	-1034
▁count	-1035
▁current	-1036
llama	-1037
23	-1038
1,"[""	-1039
▁even	-1040
▁i	-1041
ner	-1042
aking	-1043
ied	-1044
nSo	-1045
ash	-1046
bers	-1047
ets	-1048
▁consider	-1049
▁various	-1050
▁bre	-1051
▁opt	-1052
▁impro	-1053
to	-1054
blem	-1055
53	-1056
air	-1057
▁read	-1058
----	-1059
rol	-1060
▁vis	-1061
▁pur	-1062
▁require	-1063
gan	-1064
▁incre	-1065
▁Un	-1066
ases	-1067
▁water	-1068
de	-1069
▁stud	-1070
▁tas	-1071
ization	-1072
▁beh	-1073
▁pat	-1074
▁right	-1075
imes	-1076
7\	-1077
1\	-1078
▁pass	-1079
ince	-1080
▁direct	-1081
riend	-1082
▁pol	-1083
atures	-1084
▁open	-1085
▁prof	-1086
]\	-1087
In	-1088
ences	-1089
▁aut	-1090
▁cap	-1091
▁return	-1092
▁before	-1093
▁belie	-1094
▁after	-1095
iron	-1096
ave	-1097
▁There	-1098
▁try	-1099
▁stre	-1100
▁ens	-1101
▁desc	-1102
ique	-1103
▁contain	-1104
▁som	-1105
hys	-1106
▁Re	-1107
ci	-1108
▁happ	-1109
cond	-1110
▁summ	-1111
7,	-1112
nH	-1113
▁cle	-1114
▁comput	-1115
▁determ	-1116
-70	-1117
nC	-1118
▁focus	-1119
ee	-1120
▁problem	-1121
itional	-1122
▁stand	-1123
nc	-1124
ency	-1125
▁proper	-1126
▁conf	-1127
▁making	-1128
ustom	-1129
nThis	-1130
vice	-1131
iness	-1132
▁bro	-1133
br	-1134
▁must	-1135
elf	-1136
▁type	-1137
What	-1138
▁group	-1139
▁common	-1140
ale	-1141
tle	-1142
ology	-1143
rect	-1144
▁sent	-1145
▁signific	-1146
▁means	-1147
▁still	-1148
▁build	-1149
▁always	-1150
▁iss	-1151
▁cond	-1152
ually	-1153
>\	-1154
akes	-1155
▁oper	-1156
▁#	-1157
8,	-1158
work	-1159
ives	-1160
po	-1161
You	-1162
▁hist	-1163
▁As	-1164
▁el	-1165
tal	-1166
▁mus	-1167
ling	-1168
▁fam	-1169
▁met	-1170
ggest	-1171
▁input	-1172
nD	-1173
▁calcul	-1174
25	-1175
ote	-1176
▁const	-1177
oid	-1178
nP	-1179
ium	-1180
▁large	-1181
▁range	-1182
▁command	-1183
▁product	-1184
4,	-1185
.\""\	-1186
▁values	-1187
ality	-1188
▁level	-1189
vent	-1190
sc	-1191
com	-1192
▁again	-1193
read	-1194
▁note	-1195
▁di	-1196
▁learning	-1197
instruct	-1198
itions	-1199
ier	-1200
▁few	-1201
▁made	-1202
▁access	-1203
ateg	-1204
erest	-1205
other	-1206
▁user	-1207
▁ve	-1208
▁bo	-1209
▁Pro	-1210
▁Con	-1211
apt	-1212
▁suggest	-1213
▁because	-1214
▁sit	-1215
▁cent	-1216
ource	-1217
66	-1218
▁connect	-1219
▁field	-1220
val	-1221
bs	-1222
▁mem	-1223
▁content	-1224
ank	-1225
▁test	-1226
▁better	-1227
▁words	-1228
9\	-1229
nR	-1230
ok	-1231
ources	-1232
pr	-1233
▁comb	-1234
);\	-1235
30	-1236
viron	-1237
▁analy	-1238
ven	-1239
).	-1240
▁phys	-1241
▁popular	-1242
ilities	-1243
▁respect	-1244
▁ed	-1245
cial	-1246
,\""	-1247
▁multi	-1248
▁conc	-1249
▁hour	-1250
▁significant	-1251
10	-1252
▁ident	-1253
▁gre	-1254
ision	-1255
▁meaning	-1256
ted	-1257
▁blo	-1258
med	-1259
play	-1260
9.	-1261
▁contin	-1262
ope	-1263
ination	-1264
atch	-1265
▁Add	-1266
▁tem	-1267
16	-1268
▁place	-1269
▁express	-1270
▁during	-1271
▁care	-1272
..	-1273
▁We	-1274
ergy	-1275
▁plan	-1276
9,	-1277
▁applic	-1278
▁mon	-1279
▁great	-1280
ew	-1281
uss	-1282
▁fin	-1283
app	-1284
▁interest	-1285
mist	-1286
▁orig	-1287
preview	-1288
ross	-1289
▁leg	-1290
▁chall	-1291
ern	-1292
ator	-1293
▁cannot	-1294
000	-1295
▁given	-1296
▁cult	-1297
▁relations	-1298
▁line	-1299
▁prot	-1300
aut	-1301
ps	-1302
▁check	-1303
▁Ex	-1304
uch	-1305
ead	-1306
▁mark	-1307
▁net	-1308
▁others	-1309
▁second	-1310
less	-1311
▁soft	-1312
vices	-1313
▁Some	-1314
ared	-1315
54	-1316
oss	-1317
▁est	-1318
ples	-1319
▁environ	-1320
▁control	-1321
▁grow	-1322
▁total	-1323
▁eas	-1324
▁activ	-1325
▁custom	-1326
ention	-1327
▁Al	-1328
▁air	-1329
ething	-1330
▁free	-1331
▁friend	-1332
ser	-1333
▁Am	-1334
fe	-1335
▁self	-1336
-0613,"[""	-1337
▁Python	-1338
und	-1339
▁chang	-1340
▁story	-1341
▁Q	-1342
:**	-1343
▁experience	-1344
-0613,	-1345
."",""	-1346
▁sever	-1347
dict	-1348
▁very	-1349
▁change	-1350
▁er	-1351
▁pract	-1352
▁redu	-1353
▁body	-1354
▁diff	-1355
▁wide	-1356
ug	-1357
uff	-1358
▁br	-1359
▁factors	-1360
ger	-1361
▁love	-1362
▁pri	-1363
▁tool	-1364
▁mov	-1365
ason	-1366
▁him	-1367
ants	-1368
▁These	-1369
▁z	-1370
▁due	-1371
▁ear	-1372
▁writ	-1373
▁lim	-1374
▁years	-1375
▁improve	-1376
▁output	-1377
▁es	-1378
▁energy	-1379
▁De	-1380
-4-	-1381
onse	-1382
▁strong	-1383
▁0.	-1384
0314	-1385
nces	-1386
▁something	-1387
▁social	-1388
nIt	-1389
▁lo	-1390
ray	-1391
▁accur	-1392
▁allow	-1393
▁relationship	-1394
ital	-1395
▁vers	-1396
ior	-1397
mat	-1398
ists	-1399
▁correct	-1400
24	-1401
86	-1402
▁bus	-1403
Sure	-1404
▁several	-1405
▁though	-1406
▁ris	-1407
▁rese	-1408
ooking	-1409
fort	-1410
urn	-1411
ries	-1412
▁An	-1413
▁sure	-1414
▁Let	-1415
ills	-1416
utes	-1417
▁Sh	-1418
▁ensure	-1419
▁|\	-1420
ering	-1421
lish	-1422
ems	-1423
▁integ	-1424
ats	-1425
▁sym	-1426
3,	-1427
▁appe	-1428
▁allows	-1429
▁ability	-1430
▁cho	-1431
▁case	-1432
ication	-1433
az	-1434
++	-1435
56	-1436
mistral	-1437
ithm	-1438
▁represent	-1439
ices	-1440
-1106-	-1441
-4-1106-	-1442
▁performance	-1443
▁ask	-1444
▁gl	-1445
ror	-1446
▁within	-1447
way	-1448
▁sound	-1449
▁found	-1450
▁struct	-1451
pos	-1452
▁move	-1453
57	-1454
59	-1455
▁rest	-1456
ren	-1457
▁inc	-1458
ories	-1459
▁sing	-1460
▁log	-1461
89	-1462
▁today	-1463
min	-1464
▁elect	-1465
▁She	-1466
ledge	-1467
ublic	-1468
▁mind	-1469
ument	-1470
▁simple	-1471
cle	-1472
▁keep	-1473
ming	-1474
nM	-1475
ails	-1476
▁mess	-1477
▁summary	-1478
ced	-1479
▁respons	-1480
▁models	-1481
▁now	-1482
▁features	-1483
ape	-1484
▁company	-1485
▁numbers	-1486
els	-1487
▁those	-1488
me	-1489
▁organ	-1490
ouse	-1491
▁systems	-1492
▁sec	-1493
ables	-1494
pri	-1495
▁typically	-1496
▁bra	-1497
▁steps	-1498
▁Use	-1499
▁project	-1500
hor	-1501
▁enc	-1502
26	-1503
▁unique	-1504
▁able	-1505
yle	-1506
▁understanding	-1507
name	-1508
chie	-1509
▁avail	-1510
▁called	-1511
▁certain	-1512
To	-1513
▁say	-1514
▁development	-1515
ances	-1516
▁team	-1517
▁ey	-1518
▁et	-1519
ccess	-1520
▁profess	-1521
▁environment	-1522
nE	-1523
▁hig	-1524
▁pres	-1525
imately	-1526
▁space	-1527
▁concept	-1528
be	-1529
ello	-1530
par	-1531
▁left	-1532
ilar	-1533
▁Is	-1534
▁experi	-1535
▁show	-1536
▁invest	-1537
▁things	-1538
ert	-1539
(\""	-1540
▁learn	-1541
net	-1542
▁What	-1543
▁bas	-1544
▁give	-1545
▁last	-1546
34	-1547
ton	-1548
▁challeng	-1549
▁Wh	-1550
▁sist	-1551
ah	-1552
84	-1553
icult	-1554
▁much	-1555
▁inf	-1556
▁print	-1557
',	-1558
▁speed	-1559
As	-1560
ird	-1561
▁string	-1562
nL	-1563
▁Be	-1564
▁hy	-1565
▁manage	-1566
▁lit	-1567
▁sw	-1568
gether	-1569
▁together	-1570
ery	-1571
):\	-1572
▁aff	-1573
▁dri	-1574
▁situ	-1575
▁sense	-1576
▁Th	-1577
▁So	-1578
▁individuals	-1579
▁less	-1580
rame	-1581
▁size	-1582
▁general	-1583
aster	-1584
▁mag	-1585
atural	-1586
▁needs	-1587
sh	-1588
date	-1589
▁full	-1590
▁describ	-1591
amp	-1592
▁short	-1593
▁three	-1594
▁Eng	-1595
▁impact	-1596
""]",0,1,0	-1597
▁takes	-1598
▁considered	-1599
tt	-1600
gor	-1601
▁difficult	-1602
▁did	-1603
▁likely	-1604
cho	-1605
▁16	-1606
<\/	-1607
▁amount	-1608
▁head	-1609
thing	-1610
▁trad	-1611
▁child	-1612
▁refer	-1613
80	-1614
oh	-1615
▁request	-1616
urity	-1617
▁table	-1618
▁room	-1619
044	-1620
▁response	-1621
▁dat	-1622
▁order	-1623
ified	-1624
aa	-1625
▁infl	-1626
▁arg	-1627
3\	-1628
▁12	-1629
▁Ar	-1630
201	-1631
▁color	-1632
▁wom	-1633
▁tasks	-1634
▁side	-1635
▁provides	-1636
▁achie	-1637
idd	-1638
gorithm	-1639
▁remain	-1640
joy	-1641
▁To	-1642
▁cr	-1643
atic	-1644
face	-1645
acy	-1646
ogn	-1647
▁rele	-1648
▁mach	-1649
aces	-1650
priate	-1651
ired	-1652
istic	-1653
▁knowledge	-1654
oose	-1655
▁behav	-1656
▁non	-1657
ommend	-1658
▁ben	-1659
uck	-1660
ulation	-1661
50	-1662
▁gr	-1663
ixt	-1664
▁business	-1665
orn	-1666
▁fre	-1667
ann	-1668
▁meas	-1669
▁exist	-1670
icient	-1671
aw	-1672
▁mo	-1673
▁fut	-1674
▁dem	-1675
▁depending	-1676
▁sun	-1677
▁fur	-1678
ights	-1679
""]",1,0,0	-1680
▁characters	-1681
St	-1682
79	-1683
▁dig	-1684
▁hours	-1685
▁But	-1686
▁available	-1687
Hello	-1688
▁scen	-1689
▁determine	-1690
orth	-1691
▁next	-1692
▁Tr	-1693
kes	-1694
nTo	-1695
).\	-1696
74	-1697
▁another	-1698
▁research	-1699
▁cost	-1700
▁designed	-1701
▁particular	-1702
▁recommend	-1703
▁cup	-1704
▁heart	-1705
▁land	-1706
▁occ	-1707
▁100	-1708
▁idea	-1709
aterial	-1710
10.	-1711
▁jo	-1712
ength	-1713
▁call	-1714
▁algorithm	-1715
▁address	-1716
▁ess	-1717
▁Pl	-1718
▁true	-1719
▁helps	-1720
nf	-1721
▁series	-1722
▁against	-1723
ule	-1724
▁tri	-1725
word	-1726
ream	-1727
iverse	-1728
▁uses	-1729
▁14	-1730
▁strateg	-1731
by	-1732
▁predict	-1733
conom	-1734
▁emot	-1735
▁break	-1736
▁market	-1737
▁deep	-1738
▁clear	-1739
▁provided	-1740
alk	-1741
ots	-1742
▁caus	-1743
▁tre	-1744
▁food	-1745
▁hard	-1746
▁accurate	-1747
▁software	-1748
▁old	-1749
▁sal	-1750
▁poem	-1751
▁necess	-1752
oci	-1753
2019	-1754
▁red	-1755
▁dra	-1756
▁cause	-1757
eric	-1758
nHere	-1759
=\""	-1760
aging	-1761
▁look	-1762
▁image	-1763
▁history	-1764
▁multiple	-1765
▁fore	-1766
▁vary	-1767
▁mar	-1768
ploy	-1769
anced	-1770
sis	-1771
▁hope	-1772
12	-1773
▁role	-1774
▁harm	-1775
▁home	-1776
ively	-1777
▁success	-1778
▁unt	-1779
▁ways	-1780
▁issues	-1781
▁skills	-1782
▁similar	-1783
▁terms	-1784
▁Sp	-1785
""]",0,0,1	-1786
ires	-1787
▁cir	-1788
▁single	-1789
▁bat	-1790
▁interact	-1791
▁maintain	-1792
ume	-1793
vern	-1794
▁natural	-1795
land	-1796
▁Com	-1797
▁training	-1798
▁someone	-1799
-1,	-1800
▁city	-1801
064	-1802
ivity	-1803
\"",\	-1804
ellig	-1805
utions	-1806
▁minutes	-1807
let	-1808
itionally	-1809
▁gen	-1810
▁law	-1811
-6	-1812
ients	-1813
place	-1814
▁song	-1815
-33	-1816
▁ball	-1817
▁brother	-1818
▁resources	-1819
▁vide	-1820
ental	-1821
▁protect	-1822
▁options	-1823
por	-1824
instant	-1825
ush	-1826
▁positive	-1827
ze	-1828
▁changes	-1829
▁}\	-1830
pose	-1831
▁Ear	-1832
▁approach	-1833
nn	-1834
▁avoid	-1835
imal	-1836
atform	-1837
aring	-1838
▁please	-1839
nThere	-1840
▁variety	-1841
-1,"[""	-1842
▁view	-1843
▁material	-1844
▁egg	-1845
▁future	-1846
▁squ	-1847
▁subject	-1848
▁yourself	-1849
▁sentence	-1850
▁technology	-1851
▁times	-1852
-8	-1853
ik	-1854
orry	-1855
ters	-1856
wards	-1857
▁script	-1858
▁pain	-1859
▁sens	-1860
amet	-1861
usion	-1862
the	-1863
▁higher	-1864
▁contrib	-1865
▁Dis	-1866
▁additional	-1867
09	-1868
ample	-1869
vert	-1870
▁libr	-1871
▁generate	-1872
▁too	-1873
python	-1874
urs	-1875
▁Se	-1876
▁original	-1877
▁details	-1878
▁13	-1879
ides	-1880
ards	-1881
ration	-1882
▁area	-1883
▁Cl	-1884
▁wind	-1885
▁equation	-1886
oot	-1887
▁become	-1888
ctor	-1889
▁rather	-1890
▁message	-1891
▁cour	-1892
-4-0314	-1893
6\	-1894
It	-1895
▁mil	-1896
52	-1897
ference	-1898
▁account	-1899
nIf	-1900
▁crit	-1901
amed	-1902
▁further	-1903
▁machine	-1904
▁involves	-1905
▁behavior	-1906
iving	-1907
▁lay	-1908
▁	-1909
e	-1910
t	-1911
n	-1912
a	-1913
o	-1914
i	-1915
s	-1916
r	-1917
l	-1918
h	-1919
d	-1920
c	-1921
u	-1922
m	-1923
p	-1924
\	-1925
f	-1926
g	-1927
"	-1928
,	-1929
y	-1930
b	-1931
.	-1932
w	-1933
v	-1934
0	-1935
k	-1936
-	-1937
1	-1938
2	-1939
T	-1940
I	-1941
3	-1942
x	-1943
:	-1944
'	-1945
4	-1946
A	-1947
S	-1948
[	-1949
]	-1950
5	-1951
`	-1952
6	-1953
)	-1954
(	-1955
C	-1956
7	-1957
*	-1958
8	-1959
9	-1960
P	-1961
H	-1962
q	-1963
M	-1964
z	-1965
D	-1966
E	-1967
B	-1968
R	-1969
L	-1970
W	-1971
j	-1972
_	-1973
F	-1974
=	-1975
N	-1976
O	-1977
/	-1978
G	-1979
?	-1980
U	-1981
Y	-1982
+	-1983
!	-1984
J	-1985
V	-1986
|	-1987
K	-1988
{	-1989
}	-1990
;	-1991
>	-1992
$	-1993
<	-1994
#	-1995
Q	-1996
